<unk>
<pad>
<s>
</s>
.
,
the
de
is
in
a
of
to
en
een
het
and
we
van
that
I
dat
it
&quot;
te
k@@
you
s@@
e@@
t@@
f@@
je
&apos;s
c@@
s
d@@
in@@
er
i@@
ge@@
--
en@@
ik
was
And
m@@
b@@
ver@@
st@@
a@@
er@@
be@@
re@@
?
g@@
die
ing
p@@
t
this
zijn
al
op
:
y
v@@
on@@
r@@
u@@
o@@
on
-@@
n@@
h@@
ar@@
di@@
ze
le@@
al@@
om
an@@
k
niet
w@@
e
at@@
z@@
de@@
are
an
ed
d
l@@
es
den
S@@
at
als
met
me
Ik
We
voor
st
or@@
op@@
have
g
for
M@@
it@@
el@@
they
li@@
ch@@
me@@
over
aan
as
sp@@
one
Het
with
y@@
can
all
&apos;t
what
A@@
gen
D@@
ac@@
about
B@@
ma@@
wat
So
ie@@
be
m
or
En
we@@
te@@
se@@
ten
dit
W@@
om@@
&apos;
ts
he@@
is@@
hebben
un@@
naar
do
there
ap@@
th@@
deze
ur@@
p
C@@
se
ra@@
not
ro@@
ic@@
l
ti@@
ter@@
et
ge
ken
ul@@
had
con@@
la@@
as@@
It
dan
oo@@
&apos;re
ne@@
o
ation
maar
P@@
ons
ri@@
out
sch@@
like
mo@@
si@@
il@@
H@@
people
so
us
T@@
E@@
n
N@@
from
ers
tr@@
ie
mensen
uit
ity
su@@
1@@
very
j@@
my
ex@@
G@@
ve
ven
kt
uit@@
ig@@
ta@@
ds
ol@@
am@@
ly
door
know
lo@@
le
ook
eren
R@@
just
De
The
L@@
♫
ot@@
kunnen
ou@@
mijn
cht
but
O@@
ter
per@@
h
der
den@@
up
But
if
waar@@
our
gen@@
i
these
ir@@
voor@@
going
end
ies
Maar
he
ec@@
el
Dit
I@@
kan
ate
J@@
zo
pa@@
men@@
them
em@@
ks
ste
by
da@@
here
doen
V@@
which
os@@
get
because
K@@
ru@@
think
see
vi@@
aa@@
men
F@@
zien
want
ent
veel
gel@@
qu@@
pro@@
Ze
Dat
wer@@
bij
tion
ij@@
more
ste@@
der@@
over@@
really
jaar
vol@@
when
no@@
hij
f
This
how
In
ha@@
&apos;ve
stu@@
aar@@
wa@@
waar
would
zou
ar
ve@@
You
for@@
w
aan@@
who
geen
bo@@
&apos;m
your
Z@@
ce
ze@@
gr@@
time
ment
way
ke@@
do@@
world
meer
ab@@
were
gaan
then
atie
don
br@@
x@@
where
gev@@
nog
oor@@
ci@@
af@@
go
wor@@
tu@@
ine
au@@
things
has
str@@
their
hoe
ing@@
heeft
ingen
Dus
gi@@
ad
hier
hun
thing
ad@@
fe@@
sen
onder@@
worden
im@@
wereld
actually
some
;
nu
ond
iets
ijk
Je
ting
onze
sa@@
sh@@
pre@@
into
years
th
maken
tot
id
pen
will
ant
oe@@
now
heid
ijke
Als
dingen
par@@
ende
able
ic
rij@@
heb
2@@
king
es@@
leven
tie
tre@@
ding
andere
les
and@@
c
ven@@
ging
ving
du@@
man@@
ch
geb@@
bl@@
ale
other
plan@@
ken@@
u
ence
gu@@
zi@@
ke
ga@@
id@@
ms
said
ens
They
been
to@@
len
bi@@
tel@@
kind
make
ber@@
tra@@
ure
jullie
mar@@
Now
oc@@
inter@@
could
sc@@
lu@@
hel@@
ster@@
vo@@
ally
ther
A
del@@
0@@
sta@@
ij
ni@@
wel
kken
aten
pl@@
her@@
po@@
got
right
pr@@
aal
hu@@
ont@@
hi@@
moeten
5
come
something
ted
heel
tur@@
even
ture
us@@
eld
echt
-
rel@@
our@@
dus
ige
ft
gaat
zal
Hij
little
much
pe@@
wij@@
U@@
nen
ten@@
na@@
ph@@
ked
oun@@
say
omdat
the@@
That
ger
komen
x
lan@@
ans
gra@@
ty
za@@
gro@@
cen@@
ice
Wat
ei@@
comp@@
cre@@
most
ous
ite
two
bu@@
ef@@
gt
no
than
ist@@
work
ss@@
ger@@
moet
vor@@
Er
ati@@
back
moe@@
ach@@
sen@@
look
first
ard
0
wil
b
all@@
ig
pu@@
ben
those
zen
old
ated
eer@@
rec@@
na
...
zoals
bel@@
lot
toe@@
body
twee
ker
ep@@
tijd
wordt
ble
iz@@
één
open
zo@@
produc@@
sche
zei
zich
goed
life
mat@@
mil@@
fa@@
!
go@@
also
aar
vis@@
sten
What
new
ree@@
ind
oon
est
chten
ob@@
Een
man
zelf
loo@@
ws
4@@
ls
Y@@
ere
cu@@
only
wi@@
app@@
ded
fin@@
water
mu@@
van@@
waren
cht@@
ning
bij@@
erd
iek
daar
ces
va@@
pla@@
ong
min@@
There
elen
any
wh@@
&apos;ll
sel@@
19@@
ood
his
il
she
land
dr@@
ijk@@
col@@
down
mid@@
In@@
gre@@
dig
denk
ical
net
eerste
kte
vel@@
laten
did
ff@@
of@@
happ@@
ying
est@@
need
r
ful
com@@
geven
take
3@@
vr@@
iteit
many
around
put
ser@@
good
bre@@
ide@@
.@@
per
ling
alleen
its
mee
weet
war@@
lin@@
day
ep
ves
alle
sy@@
lea@@
lic@@
ars
han@@
her
ur
werd
staat
vers@@
cr@@
tly
manier
um
zeggen
stel@@
daar@@
soort
ect
sion
mij
denken
tal@@
5@@
lij@@
ver
lijk
ight
oel
kel@@
wel@@
ved
different
8@@
dig@@
doing
cul@@
Well
6@@
haar
bas@@
am
ele
ters
sur@@
mi@@
hou@@
lie@@
kle@@
being
hoe@@
age
delijk
jes
isch
ank
val@@
erg
hele
oor
grote
tru@@
same
komt
10
ouw
2
through
toen
allemaal
nat@@
ple@@
00
If
ose
co@@
ary
kk@@
itu@@
dic@@
some@@
He
side
ik@@
pers@@
bot@@
ron@@
every
beg@@
mon@@
mm@@
car@@
kinderen
sla@@
omen
ess
har@@
use
struc@@
ische
sci@@
werk
schap
wr@@
ations
Ch@@
ied
9@@
story
chan@@
et@@
fu@@
enti@@
oom
ges
ko@@
mp@@
ea@@
ief
called
mer@@
ders
comple@@
uc@@
spec@@
ia
kijken
kun@@
hem
af
St@@
ën
mor@@
los@@
experi@@
ys
ating
pos@@
gens
bil@@
onden
stor@@
ho@@
por@@
simp@@
cel@@
werken
7@@
three
ek
ca@@
weten
sl@@
fun@@
&apos;d
nieuwe
made
duc@@
fam@@
ir
mis@@
cor@@
ss
self
spre@@
real@@
dige
hand@@
dag
eff@@
zouden
ever
bin@@
voe@@
eens
ga
bor@@
red
olog@@
oord
tion@@
ein@@
uur
year
talk
ziet
econom@@
50
well
nodig
ba@@
pri@@
ely
vinden
act
gener@@
Al@@
ust
ous@@
deren
pas@@
igh@@
sk@@
20
last
ou
ouw@@
dt
Th@@
ics
tw@@
alles
een@@
sec@@
deel
zon@@
jo@@
eerd
ost
ically
oren
ance
win@@
why
willen
wal@@
percent
staan
tic@@
tions
tij@@
school
dru@@
idee
dra@@
hadden
sm@@
jec@@
gebeur@@
aak
gelu@@
low
kra@@
human
ion
kunt
moment
inform@@
ima@@
iemand
zullen
speci@@
fi@@
ago
krijgen
ned
buil@@
ker@@
pic@@
led
change
sie
idea
onder
fact
wil@@
1
delen
great
drie
nam@@
gewoon
kno@@
aam
show
ates
enen
Hier
gin@@
iden
sho@@
kleine
hebt
fl@@
Wh@@
went
soci@@
verander@@
kan@@
Deze
res
start
blij@@
ome
dacht
another
lear@@
big
bli@@
find
didn
sort
weten@@
besch@@
chte
ici@@
wij
coun@@
tell
wing
ju@@
weg
maa@@
gebruiken
ë@@
ongeveer
var@@
thought
erde
ps
8
ities
started
baar
ert
ings
ors
bit
anc@@
,000
commun@@
off
cep@@
place
mach@@
zeer
ali@@
ged@@
data
schapp@@
ys@@
boe@@
kes
S
gs
give
lar@@
course
ieve
art
paar
let
elkaar
hoo@@
stri@@
wat@@
wn
mb@@
with@@
important
misschien
versch@@
tri@@
pat@@
3
kon
should
zor@@
aag
zonder
tussen
geleden
tegen
cou@@
exp@@
mean
today
Nu
toe
own
after
Ne@@
zij
vraag
minu@@
ijn
eel
sle@@
ben@@
used
cur@@
zelfs
En@@
Ver@@
em
times
lig@@
An@@
fac@@
keer
does
try
door@@
hand
mee@@
design
Hoe
sts
verk@@
ry
kwam
arch@@
solu@@
before
ouwen
India
’
problem
gd
eet
som@@
nie@@
fil@@
nu@@
ound
every@@
nor@@
OK
gesch@@
ele@@
zoe@@
re
tro@@
grap@@
loc@@
bed@@
cer@@
ire
part
voorbeeld
came
On@@
ed@@
plaat@@
Chin@@
God
terug
geloo@@
verschillende
nooit
houden
later
ation@@
ut
lim@@
anders
Amer@@
sn@@
whole
verhaal
plaats
7
ag@@
4
ster
ess@@
6
ish
better
never
buit@@
doet
groot@@
next
again
land@@
elke
lec@@
Amerik@@
long
probleem
acti@@
him
hen
elijk
kin@@
cap@@
system
vie@@
looking
eigenlijk
pra@@
ments
sing
still
zie
ns
iti@@
contro@@
nemen
altijd
Ma@@
Because
ruim@@
technology
spe@@
zit
jaren
dollar
pt
any@@
sol@@
project
dre@@
ties
progra@@
nec@@
point
proc@@
kelijk
vir@@
face
shi@@
ins
wer
comes
eft
might
chti@@
univer@@
each
ach
possi@@
waarom
ome@@
ill
heden
together
aties
sub@@
kant
steeds
bewe@@
ther@@
hier@@
eu@@
ile
done
star@@
ited
uren
polit@@
beel@@
few
ily
top
wanneer
ban@@
my@@
stand@@
incre@@
too
werkt
oce@@
gemaakt
eigen
ontwikkel@@
pp@@
stre@@
kten
mensel@@
.000
lar
9
When
foto
evolu@@
form@@
line
trans@@
ros@@
technologie
compu@@
How
cam@@
leren
doesn
question
sin@@
ack
off@@
organis@@
less
million
disc@@
bent
out@@
inf@@
conf@@
elt
30
ijkheid
miljoen
stellen
rien@@
maakt
ren@@
kkel@@
bac@@
love
og@@
halen
tor
sh
sli@@
under@@
zie@@
deed
ran@@
weer
hop@@
between
ica
ots
geld
100
bedrij@@
sor@@
Toen
iness
Thank
found
ue
iedereen
gebru@@
ren
tuur
computer
bro@@
away
real
vragen
sig@@
krij@@
lev@@
anim@@
children
vide@@
vroe@@
t-@@
laat
onen
oon@@
samen@@
md
ool
ontde@@
oud
ational
ner
procent
ans@@
sel
ative
New
reas@@
wanted
bus@@
boo@@
call
eg@@
light
dent
lang
Mijn
tal
vertellen
belangrijk
brain
ings@@
un
draa@@
eerde
ple
tes
ged
vin@@
jon@@
resp@@
ay
materi@@
best
dia
net@@
beetje
half
live
understand
ist
pen@@
person
stan@@
din@@
lijke
systeem
aren
ieke
woor@@
els
imp@@
alen
not@@
lit@@
dy
son
brengen
cl@@
four
ort
ander
mber
coming
vij@@
int
aantal
kl@@
komst
wilde
zegt
hig@@
kil@@
stop@@
oto@@
clu@@
mot@@
laatste
ions
binnen
vier
ontwer@@
goede
trying
let@@
No@@
direc@@
prot@@
bare
contin@@
ough
hoop
ye@@
always
sic
stuff
zitten
wijl
kers
mogelijk
anti@@
uro@@
200@@
beter
lie
nieuw
pop@@
elk
enor@@
working
model
dollars
belangr@@
ïn@@
parti@@
pret@@
ents
Die
gew@@
licht
La@@
desig@@
ore
ton
zodat
vandaag
punt
moo@@
typ@@
kel
tegen@@
Here
may
Africa
kids
sense
onderzoe@@
thinking
des
grot@@
niets
gebeurt
money
landen
uni@@
One
example
dui@@
zelfde
inst@@
ming
resul@@
groot
form
gla@@
zing
theor@@
stand
vla@@
ooit
dan@@
everything
aanse
TED
hal@@
genoeg
abil@@
believe
raa@@
interess@@
ldn
vlie@@
gingen
twee@@
ase
quite
tje
ness
av@@
onnen
volgende
pie@@
&#93;
are@@
antw@@
hoof@@
&#91;
lich@@
selves
took
olo@@
ick
gedaan
bla@@
Ge@@
het@@
bur@@
fig@@
probe@@
organ@@
begin
stra@@
meest
gels
enough
beginnen
indu@@
These
interesting
presen@@
ition
using
Afrika
wonder@@
energy
vre@@
Ok@@
making
film
Op
ket
ï@@
proberen
intel@@
tive
begrijpen
Earth
teren
char@@
gewel@@
ene
bra@@
tie@@
ien
country
happened
feel
five
getting
veranderen
B
ones
power
ris@@
begon
cont@@
oog@@
emaal
tely
develop@@
fan@@
open@@
hy@@
konden
ë
syste@@
food
gezien
heen
ses
set
building
schijnlijk
energie
up@@
achter@@
betekent
kele
ma
heal@@
log@@
Dan
indivi@@
Waarom
Oh
dri@@
sion@@
gele@@
beau@@
hard
tech@@
kom@@
tot@@
e-@@
problemen
samen
anden
ggen
No
probably
wis@@
ward
ized
minder
arti@@
maybe
bouwen
arly
second
number
moeil@@
space
create
tries
spel@@
gene@@
prin@@
serv@@
ef
fic@@
gang
help
says
ready
eten
ll
é
alis@@
tast@@
toch
pres@@
mogel@@
ën@@
slechts
ey@@
plac@@
scha@@
zetten
natuurlijk
glob@@
groe@@
gemeen@@
20@@
creë@@
ths
talking
medi@@
succ@@
werel@@
grou@@
anything
huis
dezelfde
gebrui@@
,@@
lion
snel
Of
wan@@
kij@@
ject
ite@@
pol@@
bet@@
ell
proble@@
chil@@
wit@@
kwa@@
alle@@
volu@@
teru@@
ace
differ@@
nieu@@
ssen
ways
uch
beeld
To@@
soor@@
V
D
ier
uur@@
De@@
ought
peri@@
mand
vertel@@
technolog@@
so@@
ill@@
sn
stru@@
comm@@
neer
begin@@
ijn@@
ree
z
C
yp@@
ey
tten
ich
res@@
eds
fe
dden
del
tting
gan@@
quest@@
goe@@
ater
port@@
T
maal
dat@@
roe@@
Af@@
natuur@@
interest@@
%
ow
én
happen@@
aga@@
mes
oug@@
O
xt
schien
P
M
bec@@
eigen@@
/
pun@@
tually
onge@@
od
tle
é@@
zelf@@
bren@@
mom@@
diff@@
000
gende
G
belan@@
tek@@
veran@@
H
fir@@
zel@@
TE@@
ld
ole
onom@@
aarom
ople
E
suc@@
ht
Afr@@
j
dol@@
Ho@@
F
ullie
fo@@
genoe@@
zul@@
vand@@
thr@@
W
very@@
dereen
miljo@@
energ@@
ontwi@@
ó@@
exam@@
Q@@
cent
sne@@
U
L
ably
ids
erg@@
eig@@
elk@@
read@@
eri@@
ouden
K
N
Afrik@@
grij@@
chts
v
itten
nd
X@@
ause
devel@@
ybe
begrij@@
è@@
ould
ö@@
quot@@
arth
nolog@@
R
”
The@@
–
…
lob@@
import@@
ragen
$
schijn@@
“
thin@@
fro@@
divi@@
twe@@
&@@
q
veer
X
ff
&apos;@@
beur@@
..
geme@@
cour@@
doe@@
‘
ü@@
J
verschill@@
laat@@
verh@@
prob@@
dn
Afri@@
betek@@
groo@@
Bec@@
Y
à
á@@
q@@
Q
Z
heb@@
—
dren
É@@
ê@@
ó
è
í@@
°
alled
)
½
#
beet@@
ã@@
+
tween
=
ï
gether
♪
apos@@
²
*
à@@
ç@@
ñ@@
ä@@
@
(
befor@@
ù
¨
^
ň@@
´
º@@
â@@
ò@@
£
lars
`@@
`
ú
î@@
˚
ì@@
ā@@
ù@@
ú@@
å@@
á
™
º
Ó@@
¾
ê
€
¼
Ç@@
