<unk>
<pad>
<s>
</s>
.
,
the
de
is
in
of
to
a
een
het
and
en
we
van
that
I
dat
&quot;
it
you
te
&apos;s
je
--
was
And
ik
?
die
this
zijn
er
:
op
s@@
niet
on
ze
om
in@@
ver@@
ge@@
met
k@@
s
are
Ik
-@@
ing
We
als
re@@
voor
t@@
have
d@@
for
al
at
they
be@@
f@@
er@@
over
b@@
t
en@@
i@@
an
me
st@@
p@@
Het
with
m@@
can
aan
&apos;t
what
a@@
about
on@@
wat
So
g@@
y
be
e
all
En
e@@
as
r@@
one
S@@
de@@
dit
&apos;
al@@
hebben
k
naar
do
there
ed
n@@
deze
es
c@@
u@@
an@@
or
di@@
not
v@@
w@@
op@@
It
dan
&apos;re
had
B@@
maar
den
o@@
ts
d
h@@
z@@
like
people
so
at@@
ar@@
el@@
from
le@@
l@@
y@@
M@@
li@@
us
mensen
very
out
ons
my
A@@
or@@
door
know
just
De
it@@
The
♫
kunnen
mijn
but
st
up
uit
ac@@
But
if
P@@
our
ten
D@@
these
going
T@@
Maar
ri@@
ook
Dit
kan
zo
la@@
sp@@
them
gen
ation
g
W@@
by
eren
ch@@
o
here
doen
ma@@
E@@
p
i
which
un@@
get
te@@
G@@
H@@
because
m
se
think
uit@@
C@@
ie@@
see
con@@
il@@
zien
he
want
Ze
om@@
Dat
ken
n
ur@@
ro@@
we@@
more
really
jaar
when
se@@
hij
ne@@
ie
ter@@
This
how
In
me@@
&apos;ve
ti@@
sch@@
l
waar
would
zou
bij
You
ate
ra@@
R@@
who
geen
N@@
ic@@
&apos;m
your
he@@
time
ent
th@@
way
is@@
world
meer
were
gaan
then
don
where
nog
go
ers
voor@@
K@@
am@@
things
ies
has
V@@
their
hoe
L@@
end
ex@@
over@@
heeft
veel
Dus
ol@@
hier
ge
hun
ad@@
ap@@
ly
F@@
worden
wereld
actually
os@@
some
;
nu
si@@
iets
Je
onze
aan@@
O@@
into
years
maken
tot
el
ul@@
tion
will
lo@@
ds
now
ingen
Als
dingen
1@@
atie
im@@
ks
ve
heb
pa@@
ter
tr@@
leven
ding
andere
as@@
ig@@
ou@@
gen@@
der@@
id
other
af@@
I@@
heid
ot@@
thing
su@@
said
They
been
kind
str@@
make
jullie
le
oo@@
Now
could
onder@@
et
ster@@
les
wa@@
ging
wel
ste@@
got
kt
right
able
ec@@
ont@@
moeten
ru@@
ing@@
something
J@@
heel
even
echt
br@@
ha@@
ity
-
h
dus
gaat
zal
Hij
little
much
to@@
sh@@
cht
ke
for@@
say
omdat
u
That
ende
gr@@
komen
mo@@
do@@
Wat
ting
inter@@
two
ve@@
ment
es@@
no
x@@
da@@
than
work
tra@@
gel@@
king
bo@@
der
tie
moet
Er
ine
bi@@
back
look
first
ste
waar@@
tre@@
wil
ar
ted
ben
those
ant
ir@@
ke@@
men
ale
per@@
...
zoals
th
ven
lot
2@@
twee
tijd
wordt
den@@
ally
sen
pen
één
sa@@
no@@
ice
zei
zich
goed
life
Z@@
men@@
!
also
hi@@
What
tu@@
Een
man
ta@@
vol@@
kken
lu@@
eld
only
water
ij@@
bu@@
waren
pre@@
ab@@
f
sc@@
daar
j@@
ens
ger@@
come
gra@@
min@@
There
po@@
vo@@
pro@@
em@@
fe@@
&apos;ll
his
she
land
vi@@
down
most
denk
ical
eerste
ger
ce
laten
did
and@@
ated
need
bl@@
take
3@@
par@@
qu@@
many
around
oe@@
put
ch
ser@@
good
stu@@
per
alleen
its
weet
aal
the@@
ten@@
aa@@
ga@@
day
alle
ous
her
ur
pe@@
werd
manier
new
oor@@
zeggen
au@@
plan@@
ep@@
soort
wor@@
sion
mij
ic
pl@@
her@@
denken
ver
na
lijk
bel@@
ci@@
different
chten
doing
A
gre@@
ss@@
zen
Well
haar
ele
oc@@
gi@@
wij@@
ze@@
being
rel@@
toe@@
isch
ft
erg
sta@@
hele
grote
same
komt
10
through
toen
b
allemaal
x
gt
If
rec@@
ber@@
any
wer@@
ni@@
He
ving
every
tel@@
kinderen
produc@@
na@@
lin@@
har@@
mee
use
ef@@
ische
werk
oon
ations
iteit
aar@@
sten
et@@
id@@
geven
lic@@
5
mil@@
ad
called
du@@
len
ence
cht@@
hem
4@@
c
af
pr@@
sche
hu@@
ist@@
man@@
ating
w
old
daar@@
ms
ho@@
werken
us@@
.@@
three
weten
van@@
mar@@
&apos;d
zo@@
sel@@
dig@@
nieuwe
del@@
made
ure
mis@@
wi@@
cor@@
ss
ded
mat@@
aten
zelf
dag
ans
pu@@
zouden
staat
eens
ga
mi@@
hel@@
red
dr@@
year
ach@@
talk
ziet
50
ond
well
nodig
ved
vinden
kel@@
5@@
gener@@
geb@@
stel@@
Al@@
sk@@
hoe@@
est
20
last
ary
ics
ige
alles
sec@@
ying
deel
ker
eerd
ree@@
ance
win@@
um
comp@@
sen@@
ood
19@@
why
wel@@
ty
car@@
willen
percent
tions
school
ose
idee
co@@
sla@@
erd
hadden
vis@@
app@@
fa@@
low
human
kunt
moment
ven@@
iemand
zullen
ago
krijgen
ia
dig
ff@@
ker@@
mp@@
gu@@
ls
led
change
sie
idea
onder
kijken
fact
mer@@
great
drie
gewoon
show
enen
Hier
col@@
kleine
hebt
fl@@
went
Deze
start
mor@@
ces
han@@
ig
ik@@
another
2
ters
ken@@
am
mu@@
big
elen
est@@
find
didn
sort
net
wij
tell
weg
gebruiken
ongeveer
thought
ps
cre@@
ling
il
cen@@
ong
started
baar
ert
ings
bit
6@@
off
place
zeer
zi@@
ere
data
r
all@@
sl@@
give
war@@
course
ars
paar
let
elkaar
rij@@
mon@@
lie@@
ders
7@@
important
misschien
jes
ei@@
ves
tal@@
tri@@
ba@@
3
kon
should
nen
dige
bor@@
ple@@
zonder
tussen
geleden
tegen
exp@@
ph@@
mean
U@@
today
Nu
toe
pla@@
pri@@
own
after
zij
iek
vraag
eel
bij@@
used
zelfs
em
An@@
ard
fac@@
keer
does
open
try
door@@
hand
design
Hoe
sts
verk@@
ry
kwam
ect
before
India
stor@@
’
va@@
problem
nu@@
OK
ess
ob@@
pas@@
body
age
dra@@
story
part
vers@@
came
ijke
ed@@
por@@
tion@@
God
ble
terug
verschillende
nooit
houden
later
anders
sur@@
whole
verhaal
go@@
plaats
ij
7
ag@@
4
ster
ess@@
ief
fi@@
6
ges
ever
better
never
vel@@
doet
next
again
land@@
elke
tic@@
long
probleem
acti@@
him
hen
ko@@
cap@@
system
looking
eigenlijk
pra@@
ments
sing
staan
still
In@@
zie
nemen
altijd
Ma@@
Because
technology
spe@@
zit
jaren
dollar
pt
sol@@
project
za@@
dacht
dre@@
delen
ties
point
kk@@
uur
kan@@
cu@@
ins
sho@@
comes
oren
might
each
ach
com@@
waarom
ill
deren
igh@@
together
vor@@
aties
sub@@
kant
steeds
ther@@
hier@@
erde
aar
done
ning
speci@@
polit@@
wing
ities
few
top
wanneer
gev@@
moe@@
ban@@
too
werkt
ked
gemaakt
eigen
pp@@
stre@@
oom
9
When
foto
ion
line
ws
technologie
How
leren
doesn
question
tly
Th@@
ali@@
off@@
organis@@
oor
jo@@
less
million
bent
ite
elt
kte
30
miljoen
dru@@
stellen
fin@@
maakt
ca@@
ren@@
love
eer@@
tor
deed
ran@@
weer
loo@@
lea@@
between
lan@@
bre@@
ek
geld
100
ron@@
sor@@
Toen
Thank
found
uc@@
iedereen
ely
ju@@
computer
gs
bro@@
away
real
onden
vragen
children
t-@@
iz@@
laat
samen@@
ieve
00
ati@@
1
ontde@@
oud
ther
ner
procent
Ch@@
ative
S
New
wanted
call
light
ep
lang
Mijn
vertellen
belangrijk
brain
ings@@
draa@@
eerde
besch@@
cul@@
best
net@@
beetje
half
real@@
live
understand
ist
person
stan@@
9@@
lijke
cur@@
systeem
lij@@
aren
ieke
cr@@
els
alen
not@@
ates
son
brengen
8
four
ander
coming
anc@@
pos@@
wh@@
,000
aantal
art
dic@@
ir
wilde
kle@@
zegt
fil@@
laatste
binnen
vier
goede
trying
ijn
ici@@
direc@@
prot@@
bare
hoop
St@@
always
stuff
kun@@
zitten
kers
ors
voe@@
mogelijk
anti@@
loc@@
200@@
beter
wn
elk
working
model
dollars
act
Y@@
ied
mb@@
Die
gew@@
licht
sle@@
desig@@
verander@@
ically
ore
ton
zodat
vandaag
tru@@
val@@
ijk
punt
Here
may
side
Africa
kids
versch@@
sense
thinking
gd
des
ben@@
niets
On@@
gebeurt
money
een@@
landen
One
example
ming
resul@@
groot
form
gla@@
times
stand
ire
ooit
dan@@
everything
TED
genoeg
wal@@
believe
raa@@
gingen
ut
quite
tro@@
tje
ness
av@@
volgende
hand@@
of@@
&#93;
&#91;
took
ick
gedaan
bla@@
ight
Ge@@
lar@@
bur@@
probe@@
organ@@
Ver@@
begin
stra@@
meest
enough
beginnen
ful
En@@
These
interesting
ition
using
Afrika
energy
making
film
Op
ï@@
proberen
tive
begrijpen
Earth
teren
re
delijk
ene
bra@@
tie@@
ien
any@@
country
spec@@
happened
feel
five
getting
veranderen
cel@@
B
ones
power
ris@@
begon
ost
develop@@
open@@
hy@@
konden
ë
stri@@
ë@@
pat@@
food
gezien
heen
ses
set
building
energie
up@@
achter@@
betekent
ma
log@@
Dan
oun@@
Waarom
Oh
tur@@
elijk
dri@@
sion@@
gele@@
spre@@
hard
ture
tech@@
kom@@
tot@@
e-@@
problemen
samen
No
probably
wis@@
minder
arti@@
maybe
uren
bouwen
second
number
chte
space
create
dt
gene@@
tw@@
serv@@
fic@@
gang
help
says
0@@
eten
star@@
alis@@
toch
ea@@
slechts
wil@@
schap
kten
scha@@
zetten
natuurlijk
groe@@
20@@
ide@@
talking
medi@@
succ@@
lim@@
anything
huis
dezelfde
,@@
8@@
snel
Of
My
connec@@
wan@@
nam@@
geeft
ask
helemaal
Zo
Wh@@
eling
werden
chan@@
book
ontwikkel@@
mm@@
oot
ijkheid
ide
small
eer
bru@@
meter
pol@@
gro@@
cla@@
means
possible
ruimte
left
lig@@
ou
Ne@@
Is
wed
planet
She
10@@
form@@
bet@@
trans@@
disc@@
15
pi@@
seen
enkele
move
lijkt
gest@@
kra@@
even@@
pretty
kennen
fol@@
kracht
hun@@
future
under@@
verder
video
ank
inf@@
brea@@
zag
wit@@
nie@@
wie
40
vrij@@
machine
rond
gens
ability
become
China
bewe@@
play
information
ust
hoor@@
bli@@
hou@@
cep@@
coun@@
ious
contro@@
zie@@
dro@@
Mar@@
ue
ack
equ@@
zeker
alle@@
dere
happen
zes
omen
bar@@
kijkt
fu@@
ele@@
ish
room
zaken
cop@@
individu@@
sup@@
picture
moest
ously
ned
conf@@
waarschijnlijk
praten
ideeën
else
kop@@
ns
eg@@
sive
rest
menselijke
simple
though
leid@@
deel@@
bad
centr@@
waarin
CA
sig@@
ace
air
science
iting
oplos@@
cho@@
dis@@
bil@@
build
vorm
without
daa@@
ssen
ways
ideas
snel@@
ator
past
cra@@
og@@
Let
ne
ler
tweede
relig@@
Ar@@
hetzelfde
boek
bew@@
goes
meeste
econom@@
Want
York
terug@@
persoon
tor@@
terwijl
face
projec@@
name
bed@@
Daar
spr@@
Omdat
across
beelden
Ja
gebruikt
ein@@
enige
beeld
je@@
To@@
materi@@
ang@@
ner@@
tic
days
gez@@
wr@@
saying
Why
person@@
voorbeeld
sh
having
gesch@@
planeet
cat@@
D
countries
werk@@
stad
waarop
aarde
jon@@
md
osp@@
saw
ili@@
nor@@
mid@@
toekomst
.000
word
problems
situ@@
simp@@
emot@@
rom@@
func@@
communic@@
oon@@
o-@@
business
ier
such
Be@@
inve@@
ouwen
beste
met@@
boo@@
dent
volgens
ital
head
week
dom
mot@@
works
makes
informatie
experi@@
lec@@
cir@@
kl@@
ational
guy
vijf
grootste
ood@@
chem@@
ged
pers
ouw@@
All
uur@@
De@@
ool
contin@@
Li@@
respon@@
happens
koo@@
peri@@
ged@@
ship
vrouw
scienti@@
consu@@
kin@@
basically
oel
so@@
sli@@
case
biolog@@
ref@@
iti@@
eerst
ye@@
billion
phys@@
zon@@
dieren
out@@
auto
vaak
ill@@
nature
mind
told
vele
elijke
din@@
tjes
klein
clu@@
ima@@
ay
innov@@
doe
verb@@
graag
Au@@
len@@
60
menten
buiten
ervan
home
reason
miljard
stuk
ys
mental
zicht
ontwer@@
soorten
my@@
ents
bal@@
vity
plaatsen
bacter@@
ast
process
sin@@
enc@@
geweest
dimen@@
top@@
bijna
blijven
los@@
ijn@@
let@@
living
universe
geïn@@
wereld@@
Dank
oper@@
visu@@
car
turn
nothing
looks
cam@@
tegen@@
echte
dy
No@@
zu@@
ieën
z
dies
ind
noemen
kam@@
middel@@
C
view
women
defin@@
medic@@
plek
groep
plaat@@
fantast@@
high
tief
zoveel
ners
val
beg@@
struc@@
six
beautiful
kor@@
sten@@
spelen
both
places
asked
care
history
pan@@
imp@@
city
sure
experience
achter
effec@@
tijd@@
cl@@
already
while
reden
halen
stop@@
dom@@
heet
boven
bring
test
stand@@
eenvou@@
Re@@
aak
pot@@
vrouwen
sti@@
cal@@
wetenschap
child
gebruik
hor@@
fic
species
maakte
yp@@
heard
kla@@
vond
within
ey
kli@@
kelijk
gar@@
25
social
ade@@
helpen
ately
kwamen
vin@@
anal@@
team
ices
hope
ently
dagen
architec@@
iden
wer
mer
sel
far
gebied
ële
As
For
Wij
zeiden
pul@@
ak@@
almost
pen@@
ited
everybody
tten
inv@@
computers
gets
ich
norm@@
ily
moeder
tis@@
read
vie@@
water@@
ug@@
La@@
seerd
mers
ren
psych@@
ble@@
vind
moeilijk
d-@@
fe
true
presen@@
Fr@@
zichzelf
gelijk@@
dden
ots
music
int
matter
teach@@
werkelijk
oude
del
duidelijk
tradi@@
tting
vol
gebeuren
ev@@
keep
mee@@
geval
erden
gan@@
lev@@
grot@@
looked
Voor
krijgt
zoeken
gels
answer
arm
whether
fra@@
single
couple
mother
bri@@
lichaam
80
duur@@
lap@@
tin@@
bere@@
roo@@
lopen
spea@@
ast@@
hon@@
vormen
zeg
exc@@
don@@
inside
zorgen
un
Bo@@
ium
bed
bijvoorbeeld
os
Me@@
stop
compas@@
0s
kreeg
ieu@@
buiten@@
feite
some@@
Ha@@
DNA
gest
lives
stof
bedoel
kr@@
ater
United
verwa@@
onen
big@@
yet
once
verandering
bedrijf
gin@@
cont@@
America
groot@@
piece
family
stond
Laten
regi@@
univers@@
Europ@@
Con@@
genomen
precies
izen
geschiedenis
kil@@
house
ality
gir@@
itself
jij
cli@@
ment@@
binnen@@
Har@@
stij@@
Som@@
moder@@
graf@@
arch@@
wrong
built
gel
basis
Nee
vroeg
oil
collec@@
kinds
diep@@
grond
chter
Met
Zij
att@@
somebody
tes
won
inst@@
group
bot@@
itu@@
global
under
da
meest@@
Nat@@
proc@@
itive
months
kijk
gezond@@
ogen
super@@
ile
ly@@
chtig
leef@@
bly
tische
dia
cer@@
T
eert
Then
mal@@
ica
mp
sequ@@
taken
kans
maal
eu@@
199@@
compu@@
order
happy
ald
vre@@
actie
enor@@
derde
antwoord
hoog@@
onderzoek
dat@@
sions
isn
photograp@@
blij@@
typ@@
community
completely
Ste@@
industri@@
run
engin@@
ligh@@
learn
must
coo@@
ering
roe@@
begonnen
sy@@
bs
Chris
iden@@
outh
ome
often
Af@@
sommige
vaar@@
war
remember
sn@@
hal@@
hoofd
geloof
ases
appro@@
animals
stelling
vroe@@
wetenschapp@@
12
natuur@@
mmer
air@@
ences
ized
until
ef
ja
Par@@
job
kkel@@
ization
Le@@
part@@
delijke
gelijk
experiment
niemand
table
cy@@
var@@
welke
denkt
leggen
Jap@@
pur@@
port
our@@
incre@@
States
imagine
action
ijk@@
bestaat
gave
rather
size
patter@@
tijdens
Amerika
natuur
enti@@
pres@@
ames
dachten
Mensen
ions
feet
%
vul@@
zin
nieuw
Ro@@
telef@@
lar
requ@@
large
He@@
Niet
ow
weg@@
tonen
ward
lots
young
oog
sci@@
deden
bestu@@
model@@
geluk
via
shi@@
issu@@
appar@@
wat@@
expl@@
taking
Om
digen
genen
Mars
ils
gers
ground
ize
elde
tte
fr@@
spel@@
maanden
media
kel
extre@@
wards
char@@
figure
amazing
anderen
high@@
minutes
aanse
ton@@
sociale
myself
hop@@
mag@@
meis@@
level
ourselves
stories
exactly
appen
proces
spi@@
muziek
health
public
ched
company
eerder
keu@@
ok@@
geloof@@
parti@@
oppervla@@
camera
challen@@
creëren
ari@@
ase
vir@@
pic@@
wasn
wonderful
effect
mes
ts@@
bes@@
woorden
zor@@
along
market
happening
druk
effici@@
O
radi@@
wist
syn@@
cle
verhalen
gelij@@
electr@@
appe@@
fish
lucht
ijnen
tual
steden
minuten
kunde
cau@@
gemeenschap
interessant
woord
gol@@
sm@@
sters
hersenen
Nor@@
spir@@
words
ism
vanuit
kun
ijf@@
ans@@
ante
trum
aring
American
night
since
vely
questions
naam
Nou
Su@@
front
education
aam
11
dar@@
reven
El@@
kwe@@
tit@@
bel
500
vast
y-@@
ul
P
ene@@
ën@@
urs
Internet
gevo@@
inten@@
Misschien
mens
im
jour@@
tors
state
area
someone
meas@@
whatever
uiteindelijk
manieren
gebeurde
ware
particular
markt
M
structure
tij@@
blo@@
objec@@
decided
Al
chting
ple
fam@@
society
seem@@
aat
press@@
bas@@
eigen@@
zin@@
rot@@
gebruik@@
Waar
anen
bouw@@
micro@@
complex@@
revolu@@
Pro@@
turns
ists
couldn
eren@@
herin@@
gegeven
mannen
uw
deta@@
ouders
Yeah
government
s-@@
/
kende
pun@@
guys
opnieuw
zaa@@
200
voedsel
doel
scher@@
ich@@
res
prof@@
clos@@
molecu@@
knew
toon@@
hulp
Ie@@
cellen
ared
lions
surface
olen
structuur
Zoals
dood
least
tually
horen
volgen
enkel
vooral
kelijke
unch
favor@@
product
Daar@@
vrij
ber
onge@@
stic
allo@@
arly
ocean
moving
outside
cells
stel
honder@@
18
bloe@@
mul@@
talen
od
kie@@
sug@@
combin@@
heids@@
chtige
intel@@
gevoel
ck
zat
audi@@
gebouw
meth@@
game
woman
huge
language
grap@@
voort@@
geweldig
ot
sche@@
machines
comple@@
object
wind
row
ined
hear
seven
interess@@
control
overal
fun@@
0,000
yed
free
kilome@@
internet
gere@@
Gr@@
tle
squ@@
volved
belangrijkste
spreken
é@@
Mo@@
vla@@
zelf@@
vindt
Uni@@
ka@@
brein
verschil
verspre@@
tig
Oké
gina
ough@@
tation
neg@@
span@@
behand@@
mos@@
Google
soms
intelligen@@
natural
ey@@
depen@@
hours
century
zing
bren@@
financi@@
levens@@
mom@@
Kijk
bescher@@
ation@@
baby
ond@@
enorme
created
disease
0.000
lit@@
Wanneer
bepaalde
beginning
Amerikaanse
beel@@
lange
alsof
ants
robot
deal
st-@@
ching
dence
difference
vision
became
vil@@
recor@@
Car@@
verbin@@
18@@
ining
scale
nam
spro@@
transp@@
besli@@
spra@@
schappen
ion@@
ise
acy
fab@@
cost
mbers
democr@@
heden
verl@@
aff@@
nation@@
vloe@@
pati@@
sed
news
bat@@
viteit
tional
worked
ash@@
brand@@
posit@@
leuk
Eén
mde
sound
phone
lever@@
ell
universum
known
tuigen
trekken
fys@@
mooi
princip@@
ures
vallen
acht
vlieg@@
ful@@
kaart
type
ervaring
creat@@
leg@@
programma
000
evolu@@
software
emp@@
consi@@
nieuws
krijg
begint
boven@@
urt
Indi@@
research
stry
tec@@
um@@
mus@@
ounds
obvi@@
gene
ome@@
soci@@
far@@
taf@@
opge@@
bezig
onderzoe@@
prin@@
complex
themselves
kere
gende
kje
G
dist@@
inven@@
third
hed
died
certain
klein@@
makkelijk
volledig
kregen
verzam@@
taal
belan@@
Sch@@
buy
quickly
heart
tel
fig@@
atic
systems
against
moesten
mooie
maak
Bra@@
resi@@
ape
Do
gone
turned
seeing
pap@@
schrijven
ico
liet
tele@@
eth@@
vader
mate
reas@@
takes
dor@@
halve
ën
spel
kno@@
Ex@@
stat@@
tou@@
based
ort
wonder@@
publiek
ox@@
la
key
dge
argu@@
pris@@
amount
students
vers
aange@@
Sa@@
ruim@@
ford
oten
oorlog
tek@@
Gre@@
evi@@
environment
entire
ket
Ter@@
fen@@
strij@@
interested
kend
drin@@
eruit
specif@@
compe@@
lage
tal
overed
Or
dien@@
elektr@@
waarvan
afhan@@
virus
tage
ats
perhaps
finally
hoeveel
Te@@
eeuw
progra@@
dia@@
ney
mechan@@
sic
H
bility
relation@@
mov@@
ected
aag
ith
Brit@@
jar@@
gor@@
sour@@
thy
needs
leave
impact
institu@@
ligt
fir@@
maj@@
terms
everyone
telijk
onnen
ang
zel@@
bedrijven
ode
bestaan
vari@@
gegevens
cancer
plan
kopen
ffen
é
marke@@
versity
ound@@
early
close
thousands
juiste
weer@@
code
jec@@
veroor@@
zon
einde
Ju@@
sometimes
uitge@@
leden
zet
70
beweging
mas@@
eyes
instead
learned
oog@@
uni@@
dev@@
middle
expla@@
nat@@
kunst
nogal
share
image
alt
jou
boeken
ce@@
ros@@
antwoor@@
acc@@
ads
posed
charac@@
common
bevol@@
Weet
dering
scre@@
ced
ush
Yes
others
population
pop@@
cool
ky
study
ches
friends
Verenigde
duizenden
aas
veel@@
perfect
gevonden
Okay
parts
gaf
atten
aard
houdt
uitda@@
instru@@
stoppen
uiten
lezen
neemt
sting
houd
Go@@
Se@@
human@@
walk
cannot
slecht
We@@
acu@@
geloven
absolu@@
feit
daarvan
Right
grow
goed@@
para@@
national
wood
nec@@
ole
began
ator@@
onom@@
onds
AI@@
neur@@
ta
vrienden
tain
zer@@
evolution
Hu@@
voort
construc@@
TED@@
cle@@
tical
passen
familie
kennis
kom
cultur@@
che@@
miles
possi@@
mass@@
kking
Br@@
wez@@
schu@@
voelen
Daarom
ear@@
survi@@
eight
program
crisis
persoon@@
realis@@
lei@@
verd@@
Laat
goo@@
ound
ah
ama
Just
flo@@
vement
given
hig@@
naast
afgelopen
VS
namelijk
ny
indu@@
abo@@
ish@@
ology
cell
heal@@
maat@@
stem
Col@@
force
bir@@
culture
perspec@@
oceaan
waarbij
groter
zwar@@
Com@@
crit@@
pie@@
map
Den@@
longer
dur@@
huis@@
eft
condi@@
conflic@@
sted
recht@@
woe@@
liefde
website
symme@@
Ken@@
can@@
hands
fly
ingly
books
midden
zoe@@
student
technolog@@
context
resp@@
vreem@@
focus
digheden
teken@@
E
changed
self-@@
niveau
ijker
waarmee
mmen
enten
gewi@@
gedrag
ject
wijs
black
genaamd
wilden
dui@@
fle@@
bus@@
minu@@
colle@@
studenten
Sp@@
theorie
Chinese
stage
easy
People
either
fun
teerd
istan
lingen
V
Not
patiën@@
illu@@
gezegd
temperat@@
Ten
kosten
gelukkig
racht
bepaal@@
tan@@
ieder
wilt
HIV
prom@@
beteken@@
mber
oos
dynam@@
gebouwd
fla@@
yourself
beper@@
gebieden
letter@@
illi@@
prijs
back@@
full
zed
incredible
mean@@
theory
kon@@
tieve
ergens
sloten
anden
geweldige
gend
aire
inc@@
nee
concept
famil@@
suc@@
non-@@
auth@@
tried
slag
verantwoor@@
omgeving
zoek
doc@@
lijn
langs
fur@@
fs
90
mark@@
atten@@
gehoord
tain@@
middelen
verbe@@
oto@@
olog@@
Staten
bereiken
zicht@@
Do@@
extra
Vol@@
maatschapp@@
tar@@
ote
use@@
pakken
shows
disp@@
simply
Joh@@
ontwerpen
vertr@@
lich@@
pas
mun@@
Afr@@
decis@@
predic@@
loed
U.S.
economie
verdi@@
olie
center
gehe@@
World
ines
ologi@@
resour@@
friend
ys@@
isme
priv@@
allerlei
voorspel@@
tom@@
vertel@@
vast@@
fer@@
anda
onderwijs
brought
knowledge
vonden
gehad
leu@@
stitu@@
gemeen@@
geest
aling
oord
Bu@@
forward
difficult
weinig
bekend
tend
thuis
origin@@
blijkt
zwe@@
sels
sea
transform@@
hol@@
ought
changes
descri@@
ped
CO@@
stig
reduc@@
drie@@
labor@@
infra@@
ja@@
jonge
lon@@
mel@@
father
paper
gas
mic
baan
Mon@@
wee@@
zij@@
werkte
som@@
cru@@
iteiten
Dan@@
schreef
feer
lijken
evolutie
cultuur
win
kes
nucle@@
spend
vertelde
vel
valu@@
stof@@
inclu@@
trac@@
Ph@@
voordat
gde
ziekte
cut
self
lok@@
0-@@
ontwikkelen
handen
ggen
kanker
sign@@
Dar@@
dier
carb@@
lost
Mid@@
fortun@@
powerful
kap@@
Onze
belangrijke
wijzen
ler@@
j
foc@@
simul@@
wers
write
ght
needed
poor
Some
certain@@
Ook
zeven
creë@@
wen
beneden
ologische
hom@@
stro@@
West@@
poin@@
meet
ial
compan@@
wouldn
leiden
reken@@
Aarde
Char@@
civi@@
ip
atie@@
tures
cro@@
clear
death
morning
berei@@
cip@@
schaal
igen
commer@@
geluid
docu@@
ïn@@
mes@@
cept
dol@@
discus@@
weken
temp@@
klin@@
Ho@@
haven
elec@@
l-@@
hold
nice
realized
bottom
systemen
statist@@
F
profes@@
climate
ordinary
wrote
gebeurd
materiaal
groeien
tools
vij@@
bese@@
autom@@
oce@@
essenti@@
regels
schrij@@
cha@@
learning
At
aars
ologie
vermogen
erin
mit@@
Ira@@
To
emer@@
Can
opportunity
starting
weeks
sitting
reg@@
mt
helft
onszelf
ieten
reden@@
ust@@
impro@@
vacc@@
Man
usu@@
mathemat@@
value
during
sever@@
behind
ks@@
zorg
plat@@
zonne@@
waarde
erop
klaar
Wie
fundamen@@
robots
Inter@@
illen
tegenwoor@@
bele@@
telling
present
fast
eat
growing
understanding
duc@@
dank
rond@@
contact
cou@@
nieu@@
loop
site
que
belie@@
average
year-@@
shape
parents
Nig@@
geef
geba@@
Jullie
gas@@
boe@@
recht
hoo@@
lang@@
laag
rist@@
perf@@
Ac@@
talked
anybody
introduc@@
menselijk
kkeld
tem@@
bouw
wetenschap@@
happiness
gic
pay
fte
stig@@
mij@@
Rus@@
iel
ban
dragen
sha@@
technologies
solution
behavior
ister
vangen
meer@@
maakten
creati@@
baar@@
osy@@
jouw
term
ak
field
running
white
areas
economy
literally
Californi@@
fo@@
bekijken
ite@@
aandacht
Rich@@
lab
sat@@
zagen
enzo@@
Kor@@
represen@@
ible
ath
alax@@
gives
sturen
curr@@
gedurende
ages
genoe@@
vraa@@
Cam@@
lock
absolutely
ankt
zz@@
lief@@
bit@@
gevallen
low@@
differ@@
omhoog
bul@@
ack@@
sia
funda@@
green
Some@@
economic
every@@
spent
humans
animal
enter@@
mogelijkheid
zaak
langer
stap
inspir@@
zul@@
small@@
art@@
ran
board
uck
continu@@
recogni@@
shed
taat
verba@@
mani@@
strateg@@
tige
198@@
cit@@
hoofd@@
ra
moti@@
ping
solu@@
moun@@
tuig
mogelijkheden
kwal@@
iet@@
kocht
gevan@@
apen
Si@@
lease
cities
produce
step
pictures
watch
knows
meen
kort
igheid
vliegen
vand@@
bedo@@
sto@@
fascin@@
komst
Cen@@
aria
waa@@
leerde
beroe@@
Mil@@
films
graph@@
English
thank
short
ential
growth
thr@@
W
ird
ous@@
very@@
dereen
Oo@@
miljo@@
vide@@
volu@@
vr@@
energ@@
aart
ools
ontwi@@
ó@@
exam@@
tuur
Q@@
Amerik@@
eas@@
era
Zo@@
inste@@
bin@@
cent
log
glob@@
iet
ths
voed@@
incredi@@
sne@@
stru@@
U
thers
riend
groei@@
L
tun@@
grou@@
ably
ids
erg@@
tran@@
liter@@
icul@@
ese
hersen@@
eig@@
elk@@
ouw
read@@
eri@@
gelu@@
ouden
comm@@
K
buil@@
educ@@
mige
orig@@
ands
moeil@@
ican
gine
N
Afrik@@
mic@@
environ@@
wijl
grij@@
vrien@@
geloo@@
lie
lear@@
chts
res@@
v
dec@@
itten
nd
aps
X@@
hoog
olo@@
anim@@
fan@@
ough
ause
Un@@
devel@@
Wor@@
mole@@
aller@@
ybe
viru@@
begrij@@
è@@
ould
sym@@
ick@@
Pe@@
eeu@@
theor@@
on-@@
dle
power@@
ö@@
thous@@
publi@@
Euro@@
quot@@
mogel@@
thu@@
Amer@@
search
commun@@
arth
govern@@
allen
dens
ready
woor@@
ala@@
mach@@
nolog@@
sit@@
R
gal
”
neer
standing
zelfde
The@@
begin@@
hul@@
eet
als@@
–
gebeur@@
soc@@
tast@@
deci@@
vlie@@
popul@@
mma
plac@@
…
uro@@
twee@@
duiz@@
eds
run@@
ree
essen@@
lob@@
ieden
fas@@
goe@@
naa@@
prec@@
prij@@
zig
import@@
chti@@
heid@@
ragen
beau@@
werel@@
het@@
$
volle@@
ama@@
pret@@
schijn@@
“
mogen
chil@@
U.@@
dise@@
makkel@@
sing@@
ural
thin@@
fro@@
bab@@
divi@@
anci@@
kwa@@
sn
Jo@@
bliek
enden
iety
extr@@
twe@@
&@@
ouwd
iteit@@
mand
q
verz@@
leven@@
pers@@
veer
belangrijk@@
X
schap@@
archit@@
au
abil@@
ff
cular
ll
web@@
robot@@
milj@@
lion
ame
ours
scri@@
S.
&apos;@@
enig@@
Chin@@
beur@@
emen
maa@@
geving
nov@@
kre@@
bedrij@@
loe@@
sum
..
schapp@@
elek@@
syste@@
tries
are@@
ervar@@
geme@@
ouldn
nis
nuc@@
Mis@@
sof@@
Eng@@
member
0
strat@@
ziek
gelukk@@
cour@@
f-@@
doe@@
text
oven
tom
moo@@
whe@@
opportun@@
‘
demo@@
reef
ü@@
eindelijk
eff@@
behavi@@
gezon@@
clim@@
interest@@
emt
J
photo@@
Men@@
schijnlijk
verschill@@
laat@@
oman
bac@@
verh@@
nen@@
univer@@
ount
genaa@@
prob@@
indivi@@
inform@@
langu@@
DN@@
dn
Afri@@
eenv@@
gebrui@@
betek@@
HI@@
groo@@
proble@@
geh@@
port@@
vern@@
hoof@@
gedra@@
quest@@
lish
geze@@
youn@@
gewel@@
gewe@@
bot
aga@@
Bec@@
veau
Y
iness
frien@@
krij@@
beh@@
mensel@@
happ@@
ijkheden
à
dy@@
Ok@@
see@@
kele
á@@
Yor@@
iste
én
fron@@
q@@
soor@@
recog@@
emaal
Q
bene@@
Z
heb@@
cin@@
ons@@
gelopen
haps
aver@@
what@@
kij@@
eën
til
with@@
ancer
sych@@
centur@@
ris
urende
oug@@
—
lei
ar-@@
dren
É@@
diff@@
Aar@@
themat@@
ê@@
Goog@@
difficul@@
troduc@@
beauti@@
eded
ordin@@
veran@@
Verenig@@
beha@@
perat@@
ó
belangr@@
wein@@
allen@@
viron@@
cris@@
è
í@@
uch
softw@@
bec@@
°
ld
studen@@
alled
weten@@
knowle@@
tely
)
½
stati@@
Om@@
#
exac@@
know@@
ross
buit@@
rien@@
beet@@
ã@@
+
ligen@@
tween
=
ï
gether
zich@@
♪
arch
opper@@
inst
TE@@
geschieden@@
teru@@
apos@@
ht
Wan@@
grow@@
schien
verantw@@
²
*
portun@@
à@@
ç@@
ñ@@
ä@@
@
(
paal@@
geschie@@
eah
befor@@
ù
quick@@
them@@
¨
gegev@@
^
gebru@@
ň@@
selves
ople
´
º@@
your@@
â@@
ò@@
£
lars
`@@
`
ú
ilie
xt
î@@
reeg
˚
ì@@
ā@@
ù@@
happen@@
ú@@
å@@
forni@@
á
™
º
Cali@@
Ó@@
¾
ê
€
¼
ldn
Ç@@
